#ifndef DISEASE_PREDICTION_MODEL_H
#define DISEASE_PREDICTION_MODEL_H


unsigned int disease_prediction_model_len = 3648;
unsigned char disease_prediction_model[] = {
 0x1c, 0x00, 0x00, 0x00, 0x54, 0x46, 0x4c, 0x33, 0x14, 0x00, 0x20, 0x00,
  0x1c, 0x00, 0x18, 0x00, 0x14, 0x00, 0x10, 0x00, 0x0c, 0x00, 0x00, 0x00,
  0x08, 0x00, 0x04, 0x00, 0x14, 0x00, 0x00, 0x00, 0x1c, 0x00, 0x00, 0x00,
  0x90, 0x00, 0x00, 0x00, 0xe8, 0x00, 0x00, 0x00, 0x10, 0x08, 0x00, 0x00,
  0x20, 0x08, 0x00, 0x00, 0xdc, 0x0d, 0x00, 0x00, 0x03, 0x00, 0x00, 0x00,
  0x01, 0x00, 0x00, 0x00, 0x10, 0x00, 0x00, 0x00, 0x00, 0x00, 0x0a, 0x00,
  0x10, 0x00, 0x0c, 0x00, 0x08, 0x00, 0x04, 0x00, 0x0a, 0x00, 0x00, 0x00,
  0x0c, 0x00, 0x00, 0x00, 0x1c, 0x00, 0x00, 0x00, 0x38, 0x00, 0x00, 0x00,
  0x0f, 0x00, 0x00, 0x00, 0x73, 0x65, 0x72, 0x76, 0x69, 0x6e, 0x67, 0x5f,
  0x64, 0x65, 0x66, 0x61, 0x75, 0x6c, 0x74, 0x00, 0x01, 0x00, 0x00, 0x00,
  0x04, 0x00, 0x00, 0x00, 0x98, 0xff, 0xff, 0xff, 0x0a, 0x00, 0x00, 0x00,
  0x04, 0x00, 0x00, 0x00, 0x07, 0x00, 0x00, 0x00, 0x64, 0x65, 0x6e, 0x73,
  0x65, 0x5f, 0x32, 0x00, 0x01, 0x00, 0x00, 0x00, 0x04, 0x00, 0x00, 0x00,
  0xd2, 0xf7, 0xff, 0xff, 0x04, 0x00, 0x00, 0x00, 0x0b, 0x00, 0x00, 0x00,
  0x64, 0x65, 0x6e, 0x73, 0x65, 0x5f, 0x69, 0x6e, 0x70, 0x75, 0x74, 0x00,
  0x02, 0x00, 0x00, 0x00, 0x34, 0x00, 0x00, 0x00, 0x04, 0x00, 0x00, 0x00,
  0xdc, 0xff, 0xff, 0xff, 0x0d, 0x00, 0x00, 0x00, 0x04, 0x00, 0x00, 0x00,
  0x13, 0x00, 0x00, 0x00, 0x43, 0x4f, 0x4e, 0x56, 0x45, 0x52, 0x53, 0x49,
  0x4f, 0x4e, 0x5f, 0x4d, 0x45, 0x54, 0x41, 0x44, 0x41, 0x54, 0x41, 0x00,
  0x08, 0x00, 0x0c, 0x00, 0x08, 0x00, 0x04, 0x00, 0x08, 0x00, 0x00, 0x00,
  0x0c, 0x00, 0x00, 0x00, 0x04, 0x00, 0x00, 0x00, 0x13, 0x00, 0x00, 0x00,
  0x6d, 0x69, 0x6e, 0x5f, 0x72, 0x75, 0x6e, 0x74, 0x69, 0x6d, 0x65, 0x5f,
  0x76, 0x65, 0x72, 0x73, 0x69, 0x6f, 0x6e, 0x00, 0x0e, 0x00, 0x00, 0x00,
  0x24, 0x07, 0x00, 0x00, 0x1c, 0x07, 0x00, 0x00, 0xcc, 0x06, 0x00, 0x00,
  0xac, 0x06, 0x00, 0x00, 0x5c, 0x06, 0x00, 0x00, 0xcc, 0x05, 0x00, 0x00,
  0xbc, 0x01, 0x00, 0x00, 0xac, 0x00, 0x00, 0x00, 0xa4, 0x00, 0x00, 0x00,
  0x9c, 0x00, 0x00, 0x00, 0x94, 0x00, 0x00, 0x00, 0x8c, 0x00, 0x00, 0x00,
  0x6c, 0x00, 0x00, 0x00, 0x04, 0x00, 0x00, 0x00, 0x82, 0xf8, 0xff, 0xff,
  0x04, 0x00, 0x00, 0x00, 0x58, 0x00, 0x00, 0x00, 0x0c, 0x00, 0x00, 0x00,
  0x08, 0x00, 0x0e, 0x00, 0x08, 0x00, 0x04, 0x00, 0x08, 0x00, 0x00, 0x00,
  0x10, 0x00, 0x00, 0x00, 0x28, 0x00, 0x00, 0x00, 0x00, 0x00, 0x06, 0x00,
  0x08, 0x00, 0x04, 0x00, 0x06, 0x00, 0x00, 0x00, 0x04, 0x00, 0x00, 0x00,
  0x01, 0x00, 0x00, 0x00, 0xea, 0x03, 0x00, 0x00, 0x00, 0x00, 0x0a, 0x00,
  0x10, 0x00, 0x0c, 0x00, 0x08, 0x00, 0x04, 0x00, 0x0a, 0x00, 0x00, 0x00,
  0x02, 0x00, 0x00, 0x00, 0x02, 0x00, 0x00, 0x00, 0x04, 0x00, 0x00, 0x00,
  0x06, 0x00, 0x00, 0x00, 0x32, 0x2e, 0x31, 0x34, 0x2e, 0x30, 0x00, 0x00,
  0xe6, 0xf8, 0xff, 0xff, 0x04, 0x00, 0x00, 0x00, 0x10, 0x00, 0x00, 0x00,
  0x31, 0x2e, 0x35, 0x2e, 0x30, 0x00, 0x00, 0x00, 0x00, 0x00, 0x00, 0x00,
  0x00, 0x00, 0x00, 0x00, 0xf4, 0xf3, 0xff, 0xff, 0xf8, 0xf3, 0xff, 0xff,
  0xfc, 0xf3, 0xff, 0xff, 0x00, 0xf4, 0xff, 0xff, 0x12, 0xf9, 0xff, 0xff,
  0x04, 0x00, 0x00, 0x00, 0x00, 0x01, 0x00, 0x00, 0x2b, 0x3d, 0xd3, 0x3f,
  0xe7, 0x28, 0x13, 0x3f, 0x92, 0x00, 0x00, 0xc0, 0xa0, 0xc3, 0xaa, 0xbf,
  0xc2, 0x7c, 0x90, 0x3e, 0x87, 0x23, 0x12, 0xc0, 0x55, 0x12, 0x42, 0x3d,
  0xbb, 0x70, 0x70, 0x3d, 0xd7, 0x3e, 0xf0, 0xbf, 0x7e, 0x52, 0x50, 0xbe,
  0xf3, 0x84, 0x0b, 0xc0, 0x8c, 0x00, 0x4a, 0x3e, 0xc0, 0xd7, 0x10, 0x3f,
  0x0a, 0x85, 0x67, 0x3c, 0x94, 0xf9, 0x1b, 0x3f, 0xa6, 0x6b, 0xbc, 0x3f,
  0x6e, 0x64, 0xb0, 0xbf, 0x86, 0xfd, 0x57, 0x3f, 0x6b, 0xe9, 0xe7, 0x3f,
  0x29, 0x22, 0x9c, 0x3f, 0x38, 0x57, 0xab, 0xbe, 0x85, 0xc2, 0x97, 0x3f,
  0x7f, 0xed, 0xab, 0xbe, 0x34, 0xb4, 0x35, 0xbe, 0x77, 0x16, 0x34, 0x3f,
  0xd3, 0xb1, 0x8d, 0xbd, 0xd1, 0x15, 0x99, 0x3f, 0xc4, 0xe2, 0xc2, 0x3e,
  0x65, 0x3a, 0x23, 0x3f, 0xfc, 0xcc, 0xa4, 0x3f, 0x2d, 0xc9, 0x4a, 0xbf,
  0x73, 0x1c, 0xcc, 0xbf, 0x5c, 0xb4, 0xbe, 0xbf, 0x36, 0x27, 0x39, 0xbf,
  0x89, 0x3b, 0x0f, 0xc0, 0x9c, 0xff, 0x55, 0xbf, 0x47, 0xc6, 0x5c, 0xbe,
  0x27, 0xb7, 0x87, 0x3e, 0x78, 0x48, 0x22, 0x3c, 0x36, 0x98, 0x05, 0xbf,
  0xb0, 0x03, 0x3a, 0xbf, 0xc8, 0x8e, 0xa0, 0x3e, 0x5e, 0x82, 0x6c, 0x3e,
  0x10, 0xde, 0x3a, 0x3d, 0x7f, 0xf9, 0xa1, 0xbf, 0x58, 0x40, 0x75, 0x3c,
  0xbd, 0xe2, 0x3d, 0xbf, 0x72, 0x8f, 0x4f, 0xbf, 0x95, 0x83, 0x81, 0xbf,
  0x19, 0x82, 0x88, 0xbf, 0xdd, 0x05, 0x0f, 0xc0, 0x55, 0x34, 0x0a, 0xbf,
  0xad, 0xa8, 0x22, 0xbf, 0x3f, 0xb0, 0x64, 0xbe, 0x22, 0x53, 0xb1, 0xbd,
  0x47, 0x98, 0xd9, 0x3e, 0x67, 0x05, 0x37, 0xbf, 0x16, 0x06, 0xbb, 0x3d,
  0xc6, 0xf8, 0x83, 0x3e, 0xb8, 0xca, 0x4f, 0x3e, 0x53, 0x5e, 0x5a, 0xbf,
  0x77, 0xa1, 0x85, 0xbe, 0x1e, 0xb8, 0x95, 0xbf, 0xf2, 0x0f, 0x67, 0xbf,
  0x1e, 0xfa, 0xff, 0xff, 0x04, 0x00, 0x00, 0x00, 0x00, 0x04, 0x00, 0x00,
  0x10, 0x64, 0x25, 0xc0, 0x5e, 0xff, 0xd4, 0xbf, 0x57, 0x2f, 0x81, 0xbe,
  0x1f, 0x77, 0x4b, 0x3f, 0x67, 0x9d, 0x12, 0x3f, 0xe0, 0x4e, 0x73, 0xc0,
  0xd4, 0xbd, 0x9e, 0x3e, 0xe5, 0x36, 0xb4, 0x3e, 0x25, 0x78, 0x3d, 0xc0,
  0xda, 0x0b, 0x20, 0x3f, 0xdc, 0x72, 0xb5, 0x3e, 0xc4, 0x95, 0xe2, 0xbf,
  0xbe, 0x2d, 0xf1, 0xbf, 0x5f, 0x48, 0x44, 0x3e, 0xdf, 0xdc, 0x58, 0xbf,
  0x9b, 0xc7, 0xb7, 0xbf, 0x1e, 0x88, 0x77, 0x3e, 0xdf, 0xd5, 0x92, 0x3e,
  0x61, 0x7f, 0x47, 0x3e, 0xcd, 0xd0, 0x90, 0x3e, 0xa2, 0xdc, 0x4c, 0x3f,
  0x78, 0xad, 0x28, 0x3f, 0x8a, 0x1f, 0x8d, 0x3e, 0xc8, 0x15, 0x82, 0x3e,
  0x55, 0x35, 0x43, 0x3e, 0xf8, 0xb0, 0x93, 0x3d, 0xc0, 0x49, 0x58, 0x3f,
  0xf9, 0x97, 0x9b, 0x3f, 0x8a, 0x75, 0x06, 0x3f, 0xcd, 0x5a, 0xff, 0x3e,
  0x5b, 0xfe, 0x50, 0x3f, 0xee, 0x8a, 0x23, 0x3d, 0xb5, 0x2b, 0xf9, 0x3d,
  0xaf, 0xe0, 0x0e, 0x40, 0x6c, 0x71, 0x45, 0xbe, 0xf3, 0xf0, 0x36, 0x3f,
  0x06, 0xeb, 0xc2, 0xbe, 0x6d, 0xc5, 0x7f, 0x40, 0xd2, 0x88, 0x2b, 0x3f,
  0xd4, 0xdd, 0x38, 0x3d, 0x33, 0x51, 0x35, 0x40, 0xda, 0xe7, 0x80, 0x3e,
  0x92, 0x28, 0x9f, 0xbe, 0xc4, 0xfe, 0xb7, 0xbe, 0xff, 0x4a, 0x1e, 0x40,
  0x62, 0xd1, 0xa6, 0xbf, 0xea, 0x67, 0x2a, 0xbf, 0x86, 0x66, 0xb8, 0x3f,
  0x46, 0x8a, 0x40, 0x3e, 0x9e, 0x1f, 0xc5, 0x3f, 0xbd, 0x29, 0x24, 0x3e,
  0x75, 0x80, 0xa6, 0x3e, 0xfe, 0x4f, 0xbd, 0xbe, 0x2d, 0x1b, 0x4e, 0x3f,
  0xd7, 0xc7, 0x13, 0x3f, 0xe3, 0xc1, 0x01, 0xbb, 0xbb, 0xcf, 0xab, 0x3f,
  0xc9, 0xcb, 0x4f, 0x3e, 0xd4, 0x05, 0x3d, 0xbe, 0xc2, 0x33, 0x84, 0xbe,
  0xa5, 0x5e, 0xbc, 0x3f, 0xb8, 0x61, 0x53, 0xbf, 0x90, 0x97, 0xc6, 0xbe,
  0x89, 0xb8, 0x71, 0x3f, 0x32, 0x8c, 0x1d, 0x3d, 0xbf, 0x6e, 0x8e, 0xbe,
  0x15, 0xcc, 0x46, 0x3e, 0x77, 0x17, 0x9e, 0xbe, 0x8f, 0x25, 0x94, 0xbe,
  0xf9, 0x99, 0xad, 0xbe, 0x93, 0xbb, 0x73, 0xbe, 0x46, 0x86, 0x95, 0xbe,
  0x9f, 0xb8, 0x04, 0x3e, 0x11, 0xb4, 0xa3, 0xbe, 0x35, 0xca, 0xff, 0x3d,
  0x48, 0x1e, 0xaa, 0xbd, 0x61, 0x0b, 0xbd, 0xbe, 0x45, 0x1a, 0xb6, 0xbd,
  0x3c, 0xea, 0xb7, 0xbd, 0x22, 0xd8, 0xff, 0xbe, 0x84, 0xdd, 0xb6, 0xbd,
  0x83, 0x3f, 0xf5, 0x3f, 0x07, 0x99, 0x1b, 0x3f, 0xac, 0x86, 0x8e, 0xbe,
  0x54, 0xd0, 0x91, 0xbf, 0xf3, 0xc8, 0x5e, 0xbf, 0xe4, 0xeb, 0xfa, 0x3d,
  0x6c, 0x32, 0x09, 0x3f, 0xf0, 0xdb, 0x49, 0xbf, 0xe2, 0xa6, 0x80, 0x3e,
  0x37, 0x2d, 0x6f, 0xbe, 0x8b, 0xc7, 0xaa, 0x3d, 0x72, 0xba, 0x1a, 0x40,
  0x0e, 0x99, 0x39, 0xbe, 0x14, 0x2a, 0x64, 0xbe, 0xf6, 0x15, 0x7c, 0x3f,
  0xb0, 0xc6, 0x90, 0xbf, 0x23, 0x8d, 0xae, 0xbf, 0x51, 0x34, 0x68, 0x3e,
  0x5f, 0x07, 0x18, 0xbe, 0x41, 0xcc, 0x06, 0xbc, 0x72, 0xa0, 0x91, 0xbf,
  0xb4, 0x7b, 0x9d, 0xbe, 0x39, 0xb6, 0x59, 0x3e, 0x7c, 0x29, 0x1c, 0xbf,
  0xdb, 0x38, 0xdd, 0x3e, 0xd8, 0xaf, 0xff, 0x3d, 0xc3, 0xa1, 0x8f, 0xbf,
  0x07, 0xf4, 0xbd, 0xbf, 0x3e, 0x52, 0x7a, 0x3e, 0x2c, 0x40, 0x16, 0xbf,
  0xe0, 0xac, 0xf4, 0xbe, 0x12, 0x6b, 0x3f, 0x3e, 0xd0, 0x98, 0xa9, 0x3d,
  0x49, 0xed, 0x03, 0xbf, 0x26, 0x97, 0xae, 0xbe, 0x21, 0xb4, 0x00, 0xbe,
  0x5b, 0xb1, 0xb5, 0xbe, 0xf7, 0xab, 0xf1, 0x3d, 0x3d, 0xdd, 0x2b, 0xbd,
  0xe6, 0x5b, 0xce, 0xbe, 0xfd, 0x16, 0x0a, 0xbc, 0x46, 0xd2, 0x51, 0xbd,
  0xaf, 0xbb, 0xf0, 0xbe, 0x5d, 0x9e, 0x04, 0xbe, 0x36, 0x1a, 0xeb, 0xbc,
  0x4d, 0x2e, 0x89, 0x3d, 0x46, 0xa0, 0x1d, 0xbe, 0xdb, 0x79, 0x08, 0x40,
  0xce, 0x7e, 0x0a, 0x40, 0x5f, 0xc9, 0x63, 0x3f, 0x85, 0x41, 0xf4, 0xbe,
  0xfd, 0xb2, 0xfc, 0x3e, 0x06, 0xd9, 0x00, 0x3f, 0x4a, 0x4a, 0x80, 0x3e,
  0x2e, 0x21, 0x71, 0x3f, 0x54, 0xfc, 0x07, 0x3f, 0xd7, 0x4d, 0x99, 0x3d,
  0x17, 0xfd, 0x8b, 0x3d, 0x88, 0x88, 0xe3, 0x3f, 0x5c, 0x6b, 0x0c, 0x40,
  0x71, 0x7c, 0xc5, 0x3d, 0xea, 0x2f, 0x5c, 0x3f, 0xc6, 0x12, 0xb7, 0x3f,
  0x1b, 0xc5, 0xa6, 0xbe, 0x72, 0x39, 0x80, 0xbe, 0xe2, 0x34, 0xf8, 0xbe,
  0x17, 0x5f, 0x5d, 0x3e, 0x46, 0xe0, 0x73, 0x3d, 0x8a, 0xef, 0x00, 0xbe,
  0x33, 0x45, 0x8f, 0x3e, 0x51, 0x85, 0xb5, 0xbe, 0x07, 0xe4, 0x1c, 0x3e,
  0xc1, 0x37, 0xcd, 0xbe, 0xd3, 0xec, 0x84, 0x3e, 0x28, 0x57, 0x25, 0xbe,
  0x0a, 0xf7, 0x82, 0x3e, 0xb2, 0x48, 0xe5, 0xbe, 0xca, 0x8e, 0x59, 0x3e,
  0x67, 0xb5, 0x8a, 0xbe, 0x14, 0x87, 0x0d, 0x40, 0x82, 0xbd, 0xde, 0xbe,
  0x3a, 0xbf, 0x26, 0x3d, 0xda, 0xd5, 0xf9, 0xbe, 0xdb, 0x9d, 0x02, 0x3e,
  0x53, 0xb5, 0xa5, 0xbe, 0x3e, 0x90, 0x81, 0xbf, 0x82, 0x82, 0x22, 0x3d,
  0xf3, 0xce, 0x9a, 0xbd, 0xaa, 0x42, 0x64, 0xbf, 0xcc, 0x86, 0xaf, 0x3e,
  0xe4, 0x3c, 0xe3, 0x3f, 0x74, 0x36, 0xab, 0xbe, 0xda, 0xca, 0xf5, 0x3e,
  0x88, 0x65, 0x70, 0x3f, 0xfd, 0x08, 0x01, 0xbf, 0xe1, 0x28, 0x76, 0xbe,
  0x07, 0xf6, 0xd1, 0xbe, 0x20, 0xe9, 0x29, 0xbe, 0x92, 0x24, 0xaa, 0xbe,
  0x30, 0x12, 0x8a, 0xbc, 0xfa, 0x86, 0x77, 0x3e, 0xf0, 0x9f, 0x94, 0x3c,
  0xdd, 0xf5, 0xdb, 0xbe, 0xfd, 0x11, 0x9f, 0xbe, 0xc0, 0xcc, 0xe9, 0x3c,
  0x05, 0x40, 0x96, 0x3e, 0x77, 0x31, 0xc9, 0xbe, 0x05, 0xba, 0x8c, 0xbe,
  0x46, 0xc5, 0x49, 0xbe, 0xfd, 0x79, 0x9e, 0xbe, 0xbb, 0x57, 0x80, 0x3e,
  0x83, 0xc9, 0xef, 0x3d, 0x96, 0x3c, 0x9a, 0x3e, 0x16, 0x0f, 0x5d, 0x3d,
  0x66, 0x73, 0xd0, 0x3e, 0x8a, 0xb8, 0x1e, 0x3f, 0x7c, 0xad, 0x87, 0x3d,
  0xa0, 0xbf, 0x3f, 0x3e, 0xf3, 0x8e, 0x05, 0x3f, 0xb0, 0x99, 0x0d, 0x3f,
  0x3d, 0x26, 0x8d, 0x3e, 0xb1, 0x94, 0xf6, 0x3e, 0x07, 0xa6, 0xc9, 0x3e,
  0xde, 0x92, 0x11, 0x3f, 0xf8, 0xb9, 0x2f, 0x3f, 0xdf, 0x4e, 0x4d, 0x3f,
  0x70, 0x47, 0xd7, 0xba, 0x5d, 0x7f, 0x12, 0x40, 0x9f, 0x83, 0xfd, 0x3f,
  0xff, 0x00, 0x4a, 0x3e, 0x55, 0x66, 0x48, 0xbe, 0x34, 0xf0, 0x2a, 0x3f,
  0x87, 0xcd, 0xc1, 0x3f, 0xb7, 0xf3, 0x39, 0x3d, 0x77, 0x44, 0xde, 0x3e,
  0xfd, 0x44, 0x37, 0x3f, 0xa5, 0x41, 0x00, 0xbd, 0x7a, 0x85, 0xad, 0x3e,
  0x76, 0xf0, 0xf0, 0x3f, 0xa9, 0x8f, 0x17, 0x40, 0x43, 0x90, 0xc8, 0x3e,
  0x8d, 0x33, 0x59, 0x3f, 0xc9, 0x8e, 0x96, 0x3f, 0x44, 0x75, 0xef, 0xbf,
  0x26, 0xbc, 0x11, 0xc0, 0x6b, 0xbe, 0xab, 0x3e, 0x00, 0xbb, 0x0e, 0x3f,
  0xb1, 0xfe, 0x15, 0xbe, 0xfd, 0x2c, 0x81, 0xbf, 0x28, 0xf4, 0xbe, 0x3e,
  0x5c, 0xb1, 0x9d, 0x3e, 0x2c, 0x04, 0x87, 0xbf, 0xfc, 0x01, 0x36, 0x3f,
  0x0d, 0xdb, 0xa8, 0x3d, 0xdd, 0x42, 0xb6, 0xbf, 0x3f, 0xb9, 0x02, 0xc0,
  0x4b, 0xda, 0x37, 0x3e, 0x18, 0xe4, 0x1e, 0xbf, 0x9a, 0x95, 0xc5, 0xbf,
  0x3c, 0xef, 0x3f, 0xc0, 0x7d, 0x02, 0xdd, 0xbf, 0xf0, 0x4b, 0xe8, 0xbd,
  0x46, 0x3a, 0xfc, 0x3e, 0xf3, 0x95, 0x21, 0x3e, 0x2c, 0x97, 0x61, 0xc0,
  0xd1, 0xb1, 0x2f, 0x3f, 0x16, 0xcb, 0x8e, 0xbe, 0xd3, 0xa7, 0x52, 0xc0,
  0xdd, 0xa2, 0x4b, 0x3f, 0x26, 0x7a, 0x20, 0x3e, 0x37, 0xc1, 0xd8, 0xbf,
  0xa2, 0x7c, 0x1b, 0xc0, 0x78, 0x97, 0x88, 0x3e, 0xeb, 0x3c, 0x82, 0xbf,
  0x73, 0x55, 0xdf, 0xbf, 0x2a, 0xfe, 0xff, 0xff, 0x04, 0x00, 0x00, 0x00,
  0x80, 0x00, 0x00, 0x00, 0x8e, 0x10, 0xaa, 0xbf, 0xb6, 0x99, 0xfd, 0x3d,
  0xaf, 0x2b, 0xc0, 0x3f, 0x7a, 0x92, 0xa4, 0x3c, 0xc3, 0x73, 0x81, 0x3f,
  0x75, 0xbe, 0xe7, 0xbe, 0x81, 0x5f, 0x36, 0x3f, 0x8a, 0xbe, 0x49, 0xbd,
  0x0c, 0xab, 0xd8, 0xbe, 0x6a, 0x97, 0x49, 0x3e, 0x46, 0xe5, 0x3c, 0x3d,
  0x8c, 0x11, 0x06, 0xc0, 0x19, 0x88, 0x4c, 0x3f, 0x1b, 0xeb, 0xd9, 0xbd,
  0xed, 0x8f, 0x6d, 0x3f, 0x2e, 0xbb, 0x93, 0xbe, 0xe9, 0x8f, 0x6c, 0x3d,
  0xaa, 0x59, 0xf2, 0xbf, 0xbb, 0xb0, 0x70, 0x3f, 0xa1, 0xf5, 0x95, 0x3e,
  0x1a, 0x5b, 0x55, 0xbd, 0xf1, 0xe1, 0x03, 0x3e, 0x6b, 0x26, 0xc1, 0xbf,
  0xb7, 0x3f, 0xa9, 0x3b, 0xde, 0x7b, 0xf7, 0x3f, 0xe4, 0x5e, 0x53, 0x3e,
  0xdc, 0xd8, 0xaa, 0xbe, 0xba, 0x2b, 0x55, 0x3f, 0x85, 0xb1, 0xa2, 0xbf,
  0x94, 0x64, 0x9c, 0xbe, 0xc7, 0x0d, 0x9c, 0x3f, 0xa2, 0x62, 0x28, 0xbc,
  0xb6, 0xfe, 0xff, 0xff, 0x04, 0x00, 0x00, 0x00, 0x40, 0x00, 0x00, 0x00,
  0x51, 0xc8, 0x87, 0xbf, 0x00, 0xae, 0x32, 0xbf, 0xd9, 0x3d, 0x40, 0xbb,
  0x53, 0xc5, 0x2c, 0x3f, 0x0a, 0x56, 0xf3, 0xbd, 0x62, 0x5b, 0x2d, 0x3f,
  0x7e, 0x1d, 0x15, 0x3f, 0x0a, 0xb8, 0x52, 0xbd, 0x56, 0x4c, 0x1e, 0x3f,
  0xe8, 0xc6, 0x2d, 0x3f, 0x1e, 0x76, 0x5b, 0xbe, 0x46, 0xf9, 0x88, 0xbf,
  0x6e, 0x4b, 0x73, 0xbf, 0xd1, 0x31, 0x8d, 0xbe, 0x97, 0xa2, 0x27, 0xbf,
  0x51, 0xc7, 0x0d, 0xbf, 0x02, 0xff, 0xff, 0xff, 0x04, 0x00, 0x00, 0x00,
  0x10, 0x00, 0x00, 0x00, 0x85, 0xf1, 0x06, 0x3f, 0x9a, 0x74, 0xbe, 0xbc,
  0x41, 0xd0, 0xbc, 0xbe, 0xe3, 0x29, 0xc5, 0xbe, 0x1e, 0xff, 0xff, 0xff,
  0x04, 0x00, 0x00, 0x00, 0x40, 0x00, 0x00, 0x00, 0x98, 0xdf, 0x29, 0x3f,
  0xa8, 0xb8, 0x9a, 0x3e, 0x28, 0xe0, 0x37, 0x3e, 0x08, 0x95, 0x7f, 0x3e,
  0xdc, 0x9b, 0x30, 0xbe, 0x0f, 0x59, 0xda, 0xbe, 0x20, 0x16, 0x34, 0xbe,
  0x57, 0xf7, 0xd1, 0xbd, 0x7f, 0xe0, 0xf3, 0xbe, 0x0c, 0x16, 0xfd, 0xbd,
  0x00, 0xc4, 0xfa, 0xbe, 0x00, 0x00, 0x00, 0x00, 0xa9, 0x2c, 0xc9, 0x3e,
  0x7e, 0x40, 0x0d, 0xbe, 0x7d, 0xab, 0x25, 0x3f, 0x87, 0xa3, 0x4b, 0x3f,
  0x5c, 0xfa, 0xff, 0xff, 0x60, 0xfa, 0xff, 0xff, 0x0f, 0x00, 0x00, 0x00,
  0x4d, 0x4c, 0x49, 0x52, 0x20, 0x43, 0x6f, 0x6e, 0x76, 0x65, 0x72, 0x74,
  0x65, 0x64, 0x2e, 0x00, 0x01, 0x00, 0x00, 0x00, 0x14, 0x00, 0x00, 0x00,
  0x00, 0x00, 0x0e, 0x00, 0x18, 0x00, 0x14, 0x00, 0x10, 0x00, 0x0c, 0x00,
  0x08, 0x00, 0x04, 0x00, 0x0e, 0x00, 0x00, 0x00, 0x14, 0x00, 0x00, 0x00,
  0x1c, 0x00, 0x00, 0x00, 0x24, 0x01, 0x00, 0x00, 0x28, 0x01, 0x00, 0x00,
  0x2c, 0x01, 0x00, 0x00, 0x04, 0x00, 0x00, 0x00, 0x6d, 0x61, 0x69, 0x6e,
  0x00, 0x00, 0x00, 0x00, 0x04, 0x00, 0x00, 0x00, 0xcc, 0x00, 0x00, 0x00,
  0x84, 0x00, 0x00, 0x00, 0x50, 0x00, 0x00, 0x00, 0x14, 0x00, 0x00, 0x00,
  0x00, 0x00, 0x0e, 0x00, 0x1a, 0x00, 0x14, 0x00, 0x10, 0x00, 0x0c, 0x00,
  0x0b, 0x00, 0x04, 0x00, 0x0e, 0x00, 0x00, 0x00, 0x1c, 0x00, 0x00, 0x00,
  0x00, 0x00, 0x00, 0x09, 0x1c, 0x00, 0x00, 0x00, 0x20, 0x00, 0x00, 0x00,
  0x01, 0x00, 0x00, 0x00, 0x00, 0x00, 0x06, 0x00, 0x08, 0x00, 0x04, 0x00,
  0x06, 0x00, 0x00, 0x00, 0x00, 0x00, 0x80, 0x3f, 0x01, 0x00, 0x00, 0x00,
  0x0a, 0x00, 0x00, 0x00, 0x01, 0x00, 0x00, 0x00, 0x09, 0x00, 0x00, 0x00,
  0x9a, 0xff, 0xff, 0xff, 0x10, 0x00, 0x00, 0x00, 0x00, 0x00, 0x00, 0x08,
  0x0c, 0x00, 0x00, 0x00, 0x10, 0x00, 0x00, 0x00, 0x24, 0xfb, 0xff, 0xff,
  0x01, 0x00, 0x00, 0x00, 0x09, 0x00, 0x00, 0x00, 0x03, 0x00, 0x00, 0x00,
  0x08, 0x00, 0x00, 0x00, 0x06, 0x00, 0x00, 0x00, 0x02, 0x00, 0x00, 0x00,
  0xca, 0xff, 0xff, 0xff, 0x10, 0x00, 0x00, 0x00, 0x00, 0x00, 0x00, 0x08,
  0x10, 0x00, 0x00, 0x00, 0x14, 0x00, 0x00, 0x00, 0xba, 0xff, 0xff, 0xff,
  0x00, 0x00, 0x00, 0x01, 0x01, 0x00, 0x00, 0x00, 0x08, 0x00, 0x00, 0x00,
  0x03, 0x00, 0x00, 0x00, 0x07, 0x00, 0x00, 0x00, 0x05, 0x00, 0x00, 0x00,
  0x01, 0x00, 0x00, 0x00, 0x00, 0x00, 0x0e, 0x00, 0x16, 0x00, 0x00, 0x00,
  0x10, 0x00, 0x0c, 0x00, 0x0b, 0x00, 0x04, 0x00, 0x0e, 0x00, 0x00, 0x00,
  0x18, 0x00, 0x00, 0x00, 0x00, 0x00, 0x00, 0x08, 0x18, 0x00, 0x00, 0x00,
  0x1c, 0x00, 0x00, 0x00, 0x00, 0x00, 0x06, 0x00, 0x08, 0x00, 0x07, 0x00,
  0x06, 0x00, 0x00, 0x00, 0x00, 0x00, 0x00, 0x01, 0x01, 0x00, 0x00, 0x00,
  0x07, 0x00, 0x00, 0x00, 0x03, 0x00, 0x00, 0x00, 0x00, 0x00, 0x00, 0x00,
  0x04, 0x00, 0x00, 0x00, 0x03, 0x00, 0x00, 0x00, 0x01, 0x00, 0x00, 0x00,
  0x0a, 0x00, 0x00, 0x00, 0x01, 0x00, 0x00, 0x00, 0x00, 0x00, 0x00, 0x00,
  0x0b, 0x00, 0x00, 0x00, 0x04, 0x04, 0x00, 0x00, 0x94, 0x03, 0x00, 0x00,
  0x24, 0x03, 0x00, 0x00, 0xd0, 0x02, 0x00, 0x00, 0x88, 0x02, 0x00, 0x00,
  0x3c, 0x02, 0x00, 0x00, 0xf0, 0x01, 0x00, 0x00, 0x68, 0x01, 0x00, 0x00,
  0xd8, 0x00, 0x00, 0x00, 0x60, 0x00, 0x00, 0x00, 0x04, 0x00, 0x00, 0x00,
  0x3e, 0xfc, 0xff, 0xff, 0x00, 0x00, 0x00, 0x01, 0x14, 0x00, 0x00, 0x00,
  0x1c, 0x00, 0x00, 0x00, 0x1c, 0x00, 0x00, 0x00, 0x0b, 0x00, 0x00, 0x00,
  0x34, 0x00, 0x00, 0x00, 0x02, 0x00, 0x00, 0x00, 0xff, 0xff, 0xff, 0xff,
  0x04, 0x00, 0x00, 0x00, 0x28, 0xfc, 0xff, 0xff, 0x19, 0x00, 0x00, 0x00,
  0x53, 0x74, 0x61, 0x74, 0x65, 0x66, 0x75, 0x6c, 0x50, 0x61, 0x72, 0x74,
  0x69, 0x74, 0x69, 0x6f, 0x6e, 0x65, 0x64, 0x43, 0x61, 0x6c, 0x6c, 0x3a,
  0x30, 0x00, 0x00, 0x00, 0x02, 0x00, 0x00, 0x00, 0x01, 0x00, 0x00, 0x00,
  0x04, 0x00, 0x00, 0x00, 0x96, 0xfc, 0xff, 0xff, 0x00, 0x00, 0x00, 0x01,
  0x14, 0x00, 0x00, 0x00, 0x1c, 0x00, 0x00, 0x00, 0x1c, 0x00, 0x00, 0x00,
  0x0a, 0x00, 0x00, 0x00, 0x50, 0x00, 0x00, 0x00, 0x02, 0x00, 0x00, 0x00,
  0xff, 0xff, 0xff, 0xff, 0x04, 0x00, 0x00, 0x00, 0x80, 0xfc, 0xff, 0xff,
  0x34, 0x00, 0x00, 0x00, 0x73, 0x65, 0x71, 0x75, 0x65, 0x6e, 0x74, 0x69,
  0x61, 0x6c, 0x2f, 0x64, 0x65, 0x6e, 0x73, 0x65, 0x5f, 0x32, 0x2f, 0x4d,
  0x61, 0x74, 0x4d, 0x75, 0x6c, 0x3b, 0x73, 0x65, 0x71, 0x75, 0x65, 0x6e,
  0x74, 0x69, 0x61, 0x6c, 0x2f, 0x64, 0x65, 0x6e, 0x73, 0x65, 0x5f, 0x32,
  0x2f, 0x42, 0x69, 0x61, 0x73, 0x41, 0x64, 0x64, 0x00, 0x00, 0x00, 0x00,
  0x02, 0x00, 0x00, 0x00, 0x01, 0x00, 0x00, 0x00, 0x04, 0x00, 0x00, 0x00,
  0x0a, 0xfd, 0xff, 0xff, 0x00, 0x00, 0x00, 0x01, 0x14, 0x00, 0x00, 0x00,
  0x1c, 0x00, 0x00, 0x00, 0x1c, 0x00, 0x00, 0x00, 0x09, 0x00, 0x00, 0x00,
  0x68, 0x00, 0x00, 0x00, 0x02, 0x00, 0x00, 0x00, 0xff, 0xff, 0xff, 0xff,
  0x10, 0x00, 0x00, 0x00, 0xf4, 0xfc, 0xff, 0xff, 0x4c, 0x00, 0x00, 0x00,
  0x73, 0x65, 0x71, 0x75, 0x65, 0x6e, 0x74, 0x69, 0x61, 0x6c, 0x2f, 0x64,
  0x65, 0x6e, 0x73, 0x65, 0x5f, 0x31, 0x2f, 0x4d, 0x61, 0x74, 0x4d, 0x75,
  0x6c, 0x3b, 0x73, 0x65, 0x71, 0x75, 0x65, 0x6e, 0x74, 0x69, 0x61, 0x6c,
  0x2f, 0x64, 0x65, 0x6e, 0x73, 0x65, 0x5f, 0x31, 0x2f, 0x52, 0x65, 0x6c,
  0x75, 0x3b, 0x73, 0x65, 0x71, 0x75, 0x65, 0x6e, 0x74, 0x69, 0x61, 0x6c,
  0x2f, 0x64, 0x65, 0x6e, 0x73, 0x65, 0x5f, 0x31, 0x2f, 0x42, 0x69, 0x61,
  0x73, 0x41, 0x64, 0x64, 0x00, 0x00, 0x00, 0x00, 0x02, 0x00, 0x00, 0x00,
  0x01, 0x00, 0x00, 0x00, 0x10, 0x00, 0x00, 0x00, 0x96, 0xfd, 0xff, 0xff,
  0x00, 0x00, 0x00, 0x01, 0x14, 0x00, 0x00, 0x00, 0x1c, 0x00, 0x00, 0x00,
  0x1c, 0x00, 0x00, 0x00, 0x08, 0x00, 0x00, 0x00, 0x60, 0x00, 0x00, 0x00,
  0x02, 0x00, 0x00, 0x00, 0xff, 0xff, 0xff, 0xff, 0x10, 0x00, 0x00, 0x00,
  0x80, 0xfd, 0xff, 0xff, 0x46, 0x00, 0x00, 0x00, 0x73, 0x65, 0x71, 0x75,
  0x65, 0x6e, 0x74, 0x69, 0x61, 0x6c, 0x2f, 0x64, 0x65, 0x6e, 0x73, 0x65,
  0x2f, 0x4d, 0x61, 0x74, 0x4d, 0x75, 0x6c, 0x3b, 0x73, 0x65, 0x71, 0x75,
  0x65, 0x6e, 0x74, 0x69, 0x61, 0x6c, 0x2f, 0x64, 0x65, 0x6e, 0x73, 0x65,
  0x2f, 0x52, 0x65, 0x6c, 0x75, 0x3b, 0x73, 0x65, 0x71, 0x75, 0x65, 0x6e,
  0x74, 0x69, 0x61, 0x6c, 0x2f, 0x64, 0x65, 0x6e, 0x73, 0x65, 0x2f, 0x42,
  0x69, 0x61, 0x73, 0x41, 0x64, 0x64, 0x00, 0x00, 0x02, 0x00, 0x00, 0x00,
  0x01, 0x00, 0x00, 0x00, 0x10, 0x00, 0x00, 0x00, 0x86, 0xfe, 0xff, 0xff,
  0x00, 0x00, 0x00, 0x01, 0x10, 0x00, 0x00, 0x00, 0x10, 0x00, 0x00, 0x00,
  0x07, 0x00, 0x00, 0x00, 0x28, 0x00, 0x00, 0x00, 0xf4, 0xfd, 0xff, 0xff,
  0x19, 0x00, 0x00, 0x00, 0x73, 0x65, 0x71, 0x75, 0x65, 0x6e, 0x74, 0x69,
  0x61, 0x6c, 0x2f, 0x64, 0x65, 0x6e, 0x73, 0x65, 0x5f, 0x32, 0x2f, 0x4d,
  0x61, 0x74, 0x4d, 0x75, 0x6c, 0x00, 0x00, 0x00, 0x02, 0x00, 0x00, 0x00,
  0x04, 0x00, 0x00, 0x00, 0x10, 0x00, 0x00, 0x00, 0xce, 0xfe, 0xff, 0xff,
  0x00, 0x00, 0x00, 0x01, 0x10, 0x00, 0x00, 0x00, 0x10, 0x00, 0x00, 0x00,
  0x06, 0x00, 0x00, 0x00, 0x28, 0x00, 0x00, 0x00, 0x3c, 0xfe, 0xff, 0xff,
  0x19, 0x00, 0x00, 0x00, 0x73, 0x65, 0x71, 0x75, 0x65, 0x6e, 0x74, 0x69,
  0x61, 0x6c, 0x2f, 0x64, 0x65, 0x6e, 0x73, 0x65, 0x5f, 0x31, 0x2f, 0x4d,
  0x61, 0x74, 0x4d, 0x75, 0x6c, 0x00, 0x00, 0x00, 0x02, 0x00, 0x00, 0x00,
  0x10, 0x00, 0x00, 0x00, 0x10, 0x00, 0x00, 0x00, 0x16, 0xff, 0xff, 0xff,
  0x00, 0x00, 0x00, 0x01, 0x10, 0x00, 0x00, 0x00, 0x10, 0x00, 0x00, 0x00,
  0x05, 0x00, 0x00, 0x00, 0x24, 0x00, 0x00, 0x00, 0x84, 0xfe, 0xff, 0xff,
  0x17, 0x00, 0x00, 0x00, 0x73, 0x65, 0x71, 0x75, 0x65, 0x6e, 0x74, 0x69,
  0x61, 0x6c, 0x2f, 0x64, 0x65, 0x6e, 0x73, 0x65, 0x2f, 0x4d, 0x61, 0x74,
  0x4d, 0x75, 0x6c, 0x00, 0x02, 0x00, 0x00, 0x00, 0x10, 0x00, 0x00, 0x00,
  0x02, 0x00, 0x00, 0x00, 0x5a, 0xff, 0xff, 0xff, 0x00, 0x00, 0x00, 0x01,
  0x10, 0x00, 0x00, 0x00, 0x10, 0x00, 0x00, 0x00, 0x04, 0x00, 0x00, 0x00,
  0x34, 0x00, 0x00, 0x00, 0xc8, 0xfe, 0xff, 0xff, 0x27, 0x00, 0x00, 0x00,
  0x73, 0x65, 0x71, 0x75, 0x65, 0x6e, 0x74, 0x69, 0x61, 0x6c, 0x2f, 0x64,
  0x65, 0x6e, 0x73, 0x65, 0x2f, 0x42, 0x69, 0x61, 0x73, 0x41, 0x64, 0x64,
  0x2f, 0x52, 0x65, 0x61, 0x64, 0x56, 0x61, 0x72, 0x69, 0x61, 0x62, 0x6c,
  0x65, 0x4f, 0x70, 0x00, 0x01, 0x00, 0x00, 0x00, 0x10, 0x00, 0x00, 0x00,
  0xaa, 0xff, 0xff, 0xff, 0x00, 0x00, 0x00, 0x01, 0x10, 0x00, 0x00, 0x00,
  0x10, 0x00, 0x00, 0x00, 0x03, 0x00, 0x00, 0x00, 0x38, 0x00, 0x00, 0x00,
  0x18, 0xff, 0xff, 0xff, 0x29, 0x00, 0x00, 0x00, 0x73, 0x65, 0x71, 0x75,
  0x65, 0x6e, 0x74, 0x69, 0x61, 0x6c, 0x2f, 0x64, 0x65, 0x6e, 0x73, 0x65,
  0x5f, 0x32, 0x2f, 0x42, 0x69, 0x61, 0x73, 0x41, 0x64, 0x64, 0x2f, 0x52,
  0x65, 0x61, 0x64, 0x56, 0x61, 0x72, 0x69, 0x61, 0x62, 0x6c, 0x65, 0x4f,
  0x70, 0x00, 0x00, 0x00, 0x01, 0x00, 0x00, 0x00, 0x04, 0x00, 0x00, 0x00,
  0x00, 0x00, 0x16, 0x00, 0x18, 0x00, 0x14, 0x00, 0x00, 0x00, 0x10, 0x00,
  0x0c, 0x00, 0x08, 0x00, 0x00, 0x00, 0x00, 0x00, 0x00, 0x00, 0x07, 0x00,
  0x16, 0x00, 0x00, 0x00, 0x00, 0x00, 0x00, 0x01, 0x10, 0x00, 0x00, 0x00,
  0x10, 0x00, 0x00, 0x00, 0x02, 0x00, 0x00, 0x00, 0x38, 0x00, 0x00, 0x00,
  0x84, 0xff, 0xff, 0xff, 0x29, 0x00, 0x00, 0x00, 0x73, 0x65, 0x71, 0x75,
  0x65, 0x6e, 0x74, 0x69, 0x61, 0x6c, 0x2f, 0x64, 0x65, 0x6e, 0x73, 0x65,
  0x5f, 0x31, 0x2f, 0x42, 0x69, 0x61, 0x73, 0x41, 0x64, 0x64, 0x2f, 0x52,
  0x65, 0x61, 0x64, 0x56, 0x61, 0x72, 0x69, 0x61, 0x62, 0x6c, 0x65, 0x4f,
  0x70, 0x00, 0x00, 0x00, 0x01, 0x00, 0x00, 0x00, 0x10, 0x00, 0x00, 0x00,
  0x00, 0x00, 0x16, 0x00, 0x1c, 0x00, 0x18, 0x00, 0x00, 0x00, 0x14, 0x00,
  0x10, 0x00, 0x0c, 0x00, 0x00, 0x00, 0x00, 0x00, 0x08, 0x00, 0x07, 0x00,
  0x16, 0x00, 0x00, 0x00, 0x00, 0x00, 0x00, 0x01, 0x14, 0x00, 0x00, 0x00,
  0x20, 0x00, 0x00, 0x00, 0x20, 0x00, 0x00, 0x00, 0x01, 0x00, 0x00, 0x00,
  0x3c, 0x00, 0x00, 0x00, 0x02, 0x00, 0x00, 0x00, 0xff, 0xff, 0xff, 0xff,
  0x02, 0x00, 0x00, 0x00, 0x04, 0x00, 0x04, 0x00, 0x04, 0x00, 0x00, 0x00,
  0x1d, 0x00, 0x00, 0x00, 0x73, 0x65, 0x72, 0x76, 0x69, 0x6e, 0x67, 0x5f,
  0x64, 0x65, 0x66, 0x61, 0x75, 0x6c, 0x74, 0x5f, 0x64, 0x65, 0x6e, 0x73,
  0x65, 0x5f, 0x69, 0x6e, 0x70, 0x75, 0x74, 0x3a, 0x30, 0x00, 0x00, 0x00,
  0x02, 0x00, 0x00, 0x00, 0x01, 0x00, 0x00, 0x00, 0x02, 0x00, 0x00, 0x00,
  0x02, 0x00, 0x00, 0x00, 0x20, 0x00, 0x00, 0x00, 0x04, 0x00, 0x00, 0x00,
  0xf4, 0xff, 0xff, 0xff, 0x19, 0x00, 0x00, 0x00, 0x00, 0x00, 0x00, 0x19,
  0x0c, 0x00, 0x0c, 0x00, 0x0b, 0x00, 0x00, 0x00, 0x00, 0x00, 0x04, 0x00,
  0x0c, 0x00, 0x00, 0x00, 0x09, 0x00, 0x00, 0x00, 0x00, 0x00, 0x00, 0x09
 
};

#endif //DISEASE_PREDICTION_MODEL_H